#include "model.h"

const unsigned char g_model[] = {
  0x1c, 0x00, 0x00, 0x00, 0x54, 0x46, 0x4c, 0x33, 0x14, 0x00, 0x20, 0x00,
  0x04, 0x00, 0x08, 0x00, 0x0c, 0x00, 0x10, 0x00, 0x14, 0x00, 0x00, 0x00,
  0x18, 0x00, 0x1c, 0x00, 0x14, 0x00, 0x00, 0x00, 0x03, 0x00, 0x00, 0x00,
  0x18, 0x00, 0x00, 0x00, 0x20, 0x00, 0x00, 0x00, 0xac, 0x00, 0x00, 0x00,
  0x20, 0x00, 0x00, 0x00, 0x54, 0x00, 0x00, 0x00, 0x4c, 0x00, 0x00, 0x00,
  0x02, 0x00, 0x00, 0x00, 0x70, 0x03, 0x00, 0x00, 0x54, 0x01, 0x00, 0x00,
  0x01, 0x00, 0x00, 0x00, 0xb0, 0x00, 0x00, 0x00, 0x0c, 0x00, 0x00, 0x00,
  0x0c, 0x09, 0x00, 0x00, 0x08, 0x09, 0x00, 0x00, 0x14, 0x08, 0x00, 0x00,
  0x9c, 0x07, 0x00, 0x00, 0xe4, 0x05, 0x00, 0x00, 0x4c, 0x04, 0x00, 0x00,
  0xd4, 0x03, 0x00, 0x00, 0xf0, 0x08, 0x00, 0x00, 0xec, 0x08, 0x00, 0x00,
  0xe8, 0x08, 0x00, 0x00, 0xe4, 0x08, 0x00, 0x00, 0x3c, 0x00, 0x00, 0x00,
  0x00, 0x00, 0x00, 0x00, 0x01, 0x00, 0x00, 0x00, 0x0c, 0x00, 0x00, 0x00,
  0x08, 0x00, 0x0c, 0x00, 0x04, 0x00, 0x08, 0x00, 0x08, 0x00, 0x00, 0x00,
  0x08, 0x00, 0x00, 0x00, 0x0b, 0x00, 0x00, 0x00, 0x13, 0x00, 0x00, 0x00,
  0x6d, 0x69, 0x6e, 0x5f, 0x72, 0x75, 0x6e, 0x74, 0x69, 0x6d, 0x65, 0x5f,
  0x76, 0x65, 0x72, 0x73, 0x69, 0x6f, 0x6e, 0x00, 0x52, 0xf8, 0xff, 0xff,
  0x04, 0x00, 0x00, 0x00, 0x10, 0x00, 0x00, 0x00, 0x31, 0x2e, 0x31, 0x34,
  0x2e, 0x30, 0x00, 0x00, 0x00, 0x00, 0x00, 0x00, 0x00, 0x00, 0x00, 0x00,
  0x0f, 0x00, 0x00, 0x00, 0x4d, 0x4c, 0x49, 0x52, 0x20, 0x43, 0x6f, 0x6e,
  0x76, 0x65, 0x72, 0x74, 0x65, 0x64, 0x2e, 0x00, 0x00, 0x00, 0x0e, 0x00,
  0x18, 0x00, 0x04, 0x00, 0x08, 0x00, 0x0c, 0x00, 0x10, 0x00, 0x14, 0x00,
  0x0e, 0x00, 0x00, 0x00, 0x14, 0x00, 0x00, 0x00, 0x3c, 0x00, 0x00, 0x00,
  0x40, 0x00, 0x00, 0x00, 0x44, 0x00, 0x00, 0x00, 0x54, 0x00, 0x00, 0x00,
  0x0a, 0x00, 0x00, 0x00, 0x04, 0x08, 0x00, 0x00, 0x94, 0x07, 0x00, 0x00,
  0xec, 0x06, 0x00, 0x00, 0x98, 0x06, 0x00, 0x00, 0xdc, 0x04, 0x00, 0x00,
  0x44, 0x03, 0x00, 0x00, 0x90, 0x02, 0x00, 0x00, 0x9c, 0x01, 0x00, 0x00,
  0xe4, 0x00, 0x00, 0x00, 0x6c, 0x00, 0x00, 0x00, 0x01, 0x00, 0x00, 0x00,
  0x00, 0x00, 0x00, 0x00, 0x01, 0x00, 0x00, 0x00, 0x09, 0x00, 0x00, 0x00,
  0x04, 0x00, 0x00, 0x00, 0x14, 0x02, 0x00, 0x00, 0x44, 0x01, 0x00, 0x00,
  0x90, 0x00, 0x00, 0x00, 0x18, 0x00, 0x00, 0x00, 0x04, 0x00, 0x00, 0x00,
  0x6d, 0x61, 0x69, 0x6e, 0x00, 0x00, 0x0a, 0x00, 0x10, 0x00, 0x04, 0x00,
  0x08, 0x00, 0x0c, 0x00, 0x0a, 0x00, 0x00, 0x00, 0x01, 0x00, 0x00, 0x00,
  0x10, 0x00, 0x00, 0x00, 0x04, 0x00, 0x00, 0x00, 0x01, 0x00, 0x00, 0x00,
  0x09, 0x00, 0x00, 0x00, 0x01, 0x00, 0x00, 0x00, 0x08, 0x00, 0x00, 0x00,
  0xf4, 0xfd, 0xff, 0xff, 0x0e, 0x00, 0x00, 0x00, 0x00, 0x00, 0x00, 0x0e,
  0x01, 0x00, 0x00, 0x00, 0xa0, 0xf8, 0xff, 0xff, 0x14, 0x00, 0x00, 0x00,
  0x0a, 0x00, 0x00, 0x00, 0x18, 0x00, 0x00, 0x00, 0x30, 0x00, 0x00, 0x00,
  0x20, 0x00, 0x00, 0x00, 0x02, 0x00, 0x00, 0x00, 0x01, 0x00, 0x00, 0x00,
  0x01, 0x00, 0x00, 0x00, 0x08, 0x00, 0x00, 0x00, 0x49, 0x64, 0x65, 0x6e,
  0x74, 0x69, 0x74, 0x79, 0x00, 0x00, 0x00, 0x00, 0x02, 0x00, 0x00, 0x00,
  0xff, 0xff, 0xff, 0xff, 0x01, 0x00, 0x00, 0x00, 0x8c, 0xf8, 0xff, 0xff,
  0x5e, 0xff, 0xff, 0xff, 0x00, 0x00, 0x00, 0x08, 0x18, 0x00, 0x00, 0x00,
  0x0c, 0x00, 0x00, 0x00, 0x04, 0x00, 0x00, 0x00, 0xa4, 0xf8, 0xff, 0xff,
  0x01, 0x00, 0x00, 0x00, 0x08, 0x00, 0x00, 0x00, 0x03, 0x00, 0x00, 0x00,
  0x07, 0x00, 0x00, 0x00, 0x05, 0x00, 0x00, 0x00, 0x02, 0x00, 0x00, 0x00,
  0x14, 0xf9, 0xff, 0xff, 0x14, 0x00, 0x00, 0x00, 0x09, 0x00, 0x00, 0x00,
  0x18, 0x00, 0x00, 0x00, 0x5c, 0x00, 0x00, 0x00, 0x4c, 0x00, 0x00, 0x00,
  0x02, 0x00, 0x00, 0x00, 0x01, 0x00, 0x00, 0x00, 0x01, 0x00, 0x00, 0x00,
  0x34, 0x00, 0x00, 0x00, 0x73, 0x65, 0x71, 0x75, 0x65, 0x6e, 0x74, 0x69,
  0x61, 0x6c, 0x2f, 0x64, 0x65, 0x6e, 0x73, 0x65, 0x5f, 0x32, 0x2f, 0x4d,
  0x61, 0x74, 0x4d, 0x75, 0x6c, 0x3b, 0x73, 0x65, 0x71, 0x75, 0x65, 0x6e,
  0x74, 0x69, 0x61, 0x6c, 0x2f, 0x64, 0x65, 0x6e, 0x73, 0x65, 0x5f, 0x32,
  0x2f, 0x42, 0x69, 0x61, 0x73, 0x41, 0x64, 0x64, 0x00, 0x00, 0x00, 0x00,
  0x02, 0x00, 0x00, 0x00, 0xff, 0xff, 0xff, 0xff, 0x01, 0x00, 0x00, 0x00,
  0x28, 0xfa, 0xff, 0xff, 0x00, 0x00, 0x0e, 0x00, 0x14, 0x00, 0x00, 0x00,
  0x08, 0x00, 0x0c, 0x00, 0x07, 0x00, 0x10, 0x00, 0x0e, 0x00, 0x00, 0x00,
  0x00, 0x00, 0x00, 0x08, 0x1c, 0x00, 0x00, 0x00, 0x10, 0x00, 0x00, 0x00,
  0x04, 0x00, 0x00, 0x00, 0x32, 0xff, 0xff, 0xff, 0x00, 0x00, 0x00, 0x01,
  0x01, 0x00, 0x00, 0x00, 0x07, 0x00, 0x00, 0x00, 0x03, 0x00, 0x00, 0x00,
  0x06, 0x00, 0x00, 0x00, 0x04, 0x00, 0x00, 0x00, 0x01, 0x00, 0x00, 0x00,
  0xc8, 0xf9, 0xff, 0xff, 0x14, 0x00, 0x00, 0x00, 0x08, 0x00, 0x00, 0x00,
  0x18, 0x00, 0x00, 0x00, 0x74, 0x00, 0x00, 0x00, 0x64, 0x00, 0x00, 0x00,
  0x02, 0x00, 0x00, 0x00, 0x01, 0x00, 0x00, 0x00, 0x09, 0x00, 0x00, 0x00,
  0x4c, 0x00, 0x00, 0x00, 0x73, 0x65, 0x71, 0x75, 0x65, 0x6e, 0x74, 0x69,
  0x61, 0x6c, 0x2f, 0x64, 0x65, 0x6e, 0x73, 0x65, 0x5f, 0x31, 0x2f, 0x4d,
  0x61, 0x74, 0x4d, 0x75, 0x6c, 0x3b, 0x73, 0x65, 0x71, 0x75, 0x65, 0x6e,
  0x74, 0x69, 0x61, 0x6c, 0x2f, 0x64, 0x65, 0x6e, 0x73, 0x65, 0x5f, 0x31,
  0x2f, 0x52, 0x65, 0x6c, 0x75, 0x3b, 0x73, 0x65, 0x71, 0x75, 0x65, 0x6e,
  0x74, 0x69, 0x61, 0x6c, 0x2f, 0x64, 0x65, 0x6e, 0x73, 0x65, 0x5f, 0x31,
  0x2f, 0x42, 0x69, 0x61, 0x73, 0x41, 0x64, 0x64, 0x00, 0x00, 0x00, 0x00,
  0x02, 0x00, 0x00, 0x00, 0xff, 0xff, 0xff, 0xff, 0x09, 0x00, 0x00, 0x00,
  0xf4, 0xfa, 0xff, 0xff, 0x00, 0x00, 0x0e, 0x00, 0x16, 0x00, 0x00, 0x00,
  0x08, 0x00, 0x0c, 0x00, 0x07, 0x00, 0x10, 0x00, 0x0e, 0x00, 0x00, 0x00,
  0x00, 0x00, 0x00, 0x08, 0x24, 0x00, 0x00, 0x00, 0x18, 0x00, 0x00, 0x00,
  0x0c, 0x00, 0x00, 0x00, 0x00, 0x00, 0x06, 0x00, 0x08, 0x00, 0x07, 0x00,
  0x06, 0x00, 0x00, 0x00, 0x00, 0x00, 0x00, 0x01, 0x01, 0x00, 0x00, 0x00,
  0x06, 0x00, 0x00, 0x00, 0x03, 0x00, 0x00, 0x00, 0x00, 0x00, 0x00, 0x00,
  0x03, 0x00, 0x00, 0x00, 0x01, 0x00, 0x00, 0x00, 0x0c, 0x00, 0x10, 0x00,
  0x0b, 0x00, 0x00, 0x00, 0x0c, 0x00, 0x04, 0x00, 0x0c, 0x00, 0x00, 0x00,
  0x09, 0x00, 0x00, 0x00, 0x00, 0x00, 0x00, 0x09, 0x01, 0x00, 0x00, 0x00,
  0xb8, 0xfa, 0xff, 0xff, 0x14, 0x00, 0x00, 0x00, 0x07, 0x00, 0x00, 0x00,
  0x18, 0x00, 0x00, 0x00, 0x6c, 0x00, 0x00, 0x00, 0x5c, 0x00, 0x00, 0x00,
  0x02, 0x00, 0x00, 0x00, 0x01, 0x00, 0x00, 0x00, 0x09, 0x00, 0x00, 0x00,
  0x46, 0x00, 0x00, 0x00, 0x73, 0x65, 0x71, 0x75, 0x65, 0x6e, 0x74, 0x69,
  0x61, 0x6c, 0x2f, 0x64, 0x65, 0x6e, 0x73, 0x65, 0x2f, 0x4d, 0x61, 0x74,
  0x4d, 0x75, 0x6c, 0x3b, 0x73, 0x65, 0x71, 0x75, 0x65, 0x6e, 0x74, 0x69,
  0x61, 0x6c, 0x2f, 0x64, 0x65, 0x6e, 0x73, 0x65, 0x2f, 0x52, 0x65, 0x6c,
  0x75, 0x3b, 0x73, 0x65, 0x71, 0x75, 0x65, 0x6e, 0x74, 0x69, 0x61, 0x6c,
  0x2f, 0x64, 0x65, 0x6e, 0x73, 0x65, 0x2f, 0x42, 0x69, 0x61, 0x73, 0x41,
  0x64, 0x64, 0x00, 0x00, 0x02, 0x00, 0x00, 0x00, 0xff, 0xff, 0xff, 0xff,
  0x09, 0x00, 0x00, 0x00, 0xe0, 0xfa, 0xff, 0xff, 0xd6, 0xfb, 0xff, 0xff,
  0x04, 0x00, 0x00, 0x00, 0x24, 0x00, 0x00, 0x00, 0xf2, 0x83, 0x1d, 0x3f,
  0x98, 0x28, 0x27, 0xbf, 0x3c, 0x16, 0x3b, 0xbf, 0xf8, 0x5d, 0x3a, 0x3e,
  0x6a, 0x01, 0x46, 0xbf, 0xa0, 0x1c, 0xc5, 0xbd, 0x34, 0x66, 0x0b, 0xbf,
  0x29, 0x71, 0xac, 0xbe, 0x20, 0xac, 0xdf, 0x3d, 0xce, 0xfb, 0xff, 0xff,
  0x10, 0x00, 0x00, 0x00, 0x06, 0x00, 0x00, 0x00, 0x14, 0x00, 0x00, 0x00,
  0x30, 0x00, 0x00, 0x00, 0x02, 0x00, 0x00, 0x00, 0x01, 0x00, 0x00, 0x00,
  0x09, 0x00, 0x00, 0x00, 0x19, 0x00, 0x00, 0x00, 0x73, 0x65, 0x71, 0x75,
  0x65, 0x6e, 0x74, 0x69, 0x61, 0x6c, 0x2f, 0x64, 0x65, 0x6e, 0x73, 0x65,
  0x5f, 0x32, 0x2f, 0x4d, 0x61, 0x74, 0x4d, 0x75, 0x6c, 0x00, 0x00, 0x00,
  0x54, 0xfb, 0xff, 0xff, 0x4a, 0xfc, 0xff, 0xff, 0x04, 0x00, 0x00, 0x00,
  0x44, 0x01, 0x00, 0x00, 0xea, 0xd1, 0xa2, 0x3e, 0xc0, 0x96, 0x7c, 0x3c,
  0x88, 0x0b, 0xbc, 0x3d, 0x8a, 0xd4, 0x67, 0xbe, 0x7e, 0xbc, 0x02, 0xbe,
  0x28, 0xe5, 0xc9, 0x3e, 0xf6, 0x31, 0x98, 0x3e, 0x00, 0x46, 0x47, 0x3c,
  0x14, 0x6f, 0xda, 0xbe, 0x98, 0x6e, 0xe1, 0x3e, 0x64, 0x37, 0xcb, 0x3e,
  0x00, 0x47, 0x06, 0xbd, 0x60, 0xc5, 0x90, 0xbe, 0x48, 0xd6, 0xc0, 0x3e,
  0x90, 0xcd, 0x23, 0xbe, 0xb0, 0x5d, 0x60, 0xbd, 0xb2, 0xcc, 0x9f, 0x3e,
  0xa0, 0xab, 0xa7, 0x3c, 0x48, 0x0e, 0xd9, 0xbd, 0x4a, 0x08, 0x06, 0xbe,
  0xc0, 0xd3, 0x08, 0x3c, 0xb8, 0xa5, 0x1d, 0x3e, 0x68, 0x2c, 0xcd, 0x3e,
  0x10, 0xba, 0x43, 0xbe, 0x7c, 0xe1, 0xf5, 0x3e, 0xca, 0xd4, 0x82, 0x3e,
  0x80, 0x2e, 0xbb, 0xbe, 0x40, 0x51, 0x24, 0xbc, 0x8c, 0x80, 0x62, 0x3e,
  0x8a, 0x2b, 0x0f, 0x3f, 0xa4, 0xfc, 0xab, 0xbe, 0xda, 0x4c, 0x02, 0xbf,
  0xc8, 0x41, 0x0c, 0x3e, 0xd0, 0xf8, 0x45, 0xbd, 0x08, 0xf3, 0x00, 0x3f,
  0xf8, 0x7c, 0xa4, 0xbe, 0xd0, 0xb1, 0xd0, 0xbe, 0x0e, 0x27, 0x5c, 0xbe,
  0x9c, 0x58, 0xb8, 0xbd, 0x6a, 0x53, 0x0f, 0x3f, 0xe0, 0xbd, 0xdf, 0x3e,
  0x7c, 0xae, 0x64, 0x3e, 0x40, 0xa4, 0xf9, 0x3e, 0x8c, 0xfd, 0xe0, 0xbe,
  0x10, 0x75, 0x05, 0x3f, 0x9a, 0x09, 0x86, 0x3e, 0xf0, 0x0f, 0x0a, 0xbd,
  0x7c, 0x22, 0x25, 0xbe, 0x18, 0xf2, 0xce, 0x3e, 0xaa, 0x04, 0xd4, 0x3e,
  0x88, 0x54, 0x70, 0x3e, 0x00, 0x2f, 0x19, 0x3e, 0x7c, 0xb5, 0x3f, 0x3e,
  0x40, 0x2a, 0x07, 0xbf, 0xe2, 0x56, 0xc2, 0x3e, 0x2c, 0xa4, 0xd6, 0xbe,
  0x61, 0xfe, 0x00, 0xbf, 0xfc, 0x2c, 0x36, 0x3e, 0x20, 0xca, 0x5e, 0xbe,
  0x40, 0x62, 0x9c, 0xbd, 0x80, 0x06, 0x4b, 0x3d, 0xd5, 0xd5, 0xc5, 0xbe,
  0xa2, 0x9c, 0x29, 0xbe, 0x00, 0x79, 0x49, 0xbd, 0x3a, 0x80, 0x99, 0x3e,
  0x00, 0xe2, 0x15, 0x3d, 0x38, 0xfe, 0x7c, 0x3e, 0x00, 0xe5, 0xce, 0x3b,
  0xdc, 0x40, 0xfd, 0xbe, 0xe8, 0xb4, 0x06, 0x3f, 0x94, 0xc1, 0x83, 0x3e,
  0x14, 0x79, 0x77, 0x3e, 0x00, 0xa7, 0xdc, 0xbb, 0x52, 0xff, 0x87, 0x3e,
  0xfa, 0x69, 0x07, 0xbf, 0x80, 0x6f, 0xfd, 0xbc, 0x8b, 0xed, 0x00, 0xbf,
  0xca, 0xfe, 0xc1, 0x3e, 0xb5, 0x4a, 0xf3, 0xbe, 0xa4, 0xb8, 0xb1, 0xbd,
  0x40, 0xa1, 0x5b, 0x3e, 0x62, 0xfd, 0xff, 0xff, 0x10, 0x00, 0x00, 0x00,
  0x05, 0x00, 0x00, 0x00, 0x14, 0x00, 0x00, 0x00, 0x30, 0x00, 0x00, 0x00,
  0x02, 0x00, 0x00, 0x00, 0x09, 0x00, 0x00, 0x00, 0x09, 0x00, 0x00, 0x00,
  0x19, 0x00, 0x00, 0x00, 0x73, 0x65, 0x71, 0x75, 0x65, 0x6e, 0x74, 0x69,
  0x61, 0x6c, 0x2f, 0x64, 0x65, 0x6e, 0x73, 0x65, 0x5f, 0x31, 0x2f, 0x4d,
  0x61, 0x74, 0x4d, 0x75, 0x6c, 0x00, 0x00, 0x00, 0xe8, 0xfc, 0xff, 0xff,
  0xde, 0xfd, 0xff, 0xff, 0x04, 0x00, 0x00, 0x00, 0x68, 0x01, 0x00, 0x00,
  0xa0, 0xf7, 0xcc, 0xbc, 0x50, 0x43, 0xcf, 0x3d, 0xac, 0x27, 0xe0, 0xbe,
  0xea, 0x3b, 0xeb, 0xbe, 0xd4, 0x3a, 0x03, 0xbf, 0xe3, 0x8b, 0x05, 0x3f,
  0x02, 0xea, 0xb1, 0xbe, 0x64, 0xbc, 0x25, 0x3e, 0x60, 0x31, 0x72, 0xbd,
  0x38, 0xe5, 0x4c, 0xbe, 0x00, 0xd8, 0x71, 0x3a, 0x41, 0x21, 0x08, 0xbf,
  0x18, 0xe7, 0x02, 0xbe, 0xd0, 0x96, 0xda, 0xbe, 0x56, 0x86, 0xb7, 0x3e,
  0xb4, 0x25, 0x18, 0x3e, 0x59, 0xec, 0x0c, 0x3f, 0x1c, 0x81, 0xe4, 0xbd,
  0x36, 0x60, 0x0b, 0xbf, 0x09, 0x5e, 0x8b, 0xbe, 0xec, 0xef, 0xc3, 0xbd,
  0x24, 0xa9, 0x48, 0x3e, 0xce, 0xcb, 0x86, 0xbe, 0xfa, 0x48, 0xfb, 0x3e,
  0x22, 0x1e, 0x40, 0xbe, 0x80, 0x33, 0xe8, 0x3c, 0x03, 0xd2, 0x0e, 0x3f,
  0xc0, 0xe2, 0x3c, 0x3c, 0xe4, 0xc2, 0x88, 0x3e, 0x5e, 0x00, 0xfc, 0x3e,
  0xe4, 0xe7, 0x10, 0xbe, 0x7e, 0xf8, 0xd3, 0xbe, 0xbe, 0xfe, 0x9a, 0x3e,
  0x80, 0x91, 0xf7, 0xbe, 0xc6, 0x26, 0x4a, 0xbe, 0x34, 0xd7, 0xa9, 0xbe,
  0xf6, 0x1a, 0xee, 0xbe, 0x40, 0x24, 0x77, 0x3e, 0x34, 0xaa, 0xdd, 0xbd,
  0x0d, 0x51, 0x09, 0xbf, 0xd8, 0xc3, 0x5b, 0x3e, 0x40, 0x51, 0x8a, 0x3d,
  0x94, 0x95, 0xa1, 0xbe, 0x9e, 0x27, 0xc5, 0xbe, 0x60, 0xd5, 0x8f, 0xbd,
  0xd8, 0x85, 0xd1, 0x3d, 0xbe, 0x03, 0xc1, 0xbe, 0x60, 0x07, 0xa9, 0xbc,
  0xf0, 0x95, 0xd3, 0xbd, 0xce, 0xa2, 0xfa, 0x3e, 0x8d, 0x22, 0x85, 0xbe,
  0xf5, 0x6e, 0x0a, 0x3f, 0xb7, 0x83, 0xe1, 0xbe, 0x70, 0x2b, 0x46, 0x3d,
  0x5c, 0xe1, 0xf1, 0xbe, 0xe0, 0x35, 0x59, 0x3e, 0x6c, 0x73, 0x08, 0x3e,
  0xdc, 0x85, 0x66, 0xbe, 0x83, 0x58, 0x0d, 0x3f, 0x60, 0xd4, 0x86, 0xbe,
  0xf6, 0x73, 0xff, 0xbe, 0x26, 0x2a, 0xaf, 0x3e, 0xca, 0xd9, 0x02, 0xbe,
  0xde, 0xac, 0x40, 0xbe, 0xe4, 0x99, 0x89, 0xbe, 0x36, 0xfd, 0xe5, 0x3e,
  0x6a, 0x1f, 0xec, 0xbe, 0xc0, 0x84, 0x6c, 0x3d, 0x80, 0x2e, 0x30, 0x3d,
  0xac, 0xc3, 0x8f, 0xbd, 0xec, 0x11, 0xa9, 0x3e, 0x4c, 0x15, 0x83, 0x3e,
  0xa5, 0x3f, 0x05, 0x3f, 0xce, 0xad, 0x9e, 0x3e, 0x10, 0x39, 0xd0, 0x3e,
  0x90, 0x10, 0xb4, 0xbe, 0x79, 0x35, 0xf1, 0xbe, 0xd4, 0xcc, 0xb0, 0xbd,
  0x9d, 0x75, 0x0b, 0x3f, 0xe6, 0x92, 0xb4, 0xbe, 0xc0, 0x51, 0x96, 0x3e,
  0x7a, 0xa8, 0xe3, 0x3e, 0xdc, 0x7c, 0x40, 0x3e, 0x1a, 0xa0, 0x0c, 0xbf,
  0x78, 0xea, 0xd7, 0x3d, 0xb0, 0x60, 0x13, 0x3e, 0xa1, 0xfa, 0x99, 0xbe,
  0x58, 0x16, 0xb7, 0x3d, 0xc0, 0x93, 0x77, 0x3c, 0x18, 0xee, 0x76, 0x3e,
  0x1a, 0xff, 0xff, 0xff, 0x10, 0x00, 0x00, 0x00, 0x04, 0x00, 0x00, 0x00,
  0x14, 0x00, 0x00, 0x00, 0x2c, 0x00, 0x00, 0x00, 0x02, 0x00, 0x00, 0x00,
  0x09, 0x00, 0x00, 0x00, 0x0a, 0x00, 0x00, 0x00, 0x17, 0x00, 0x00, 0x00,
  0x73, 0x65, 0x71, 0x75, 0x65, 0x6e, 0x74, 0x69, 0x61, 0x6c, 0x2f, 0x64,
  0x65, 0x6e, 0x73, 0x65, 0x2f, 0x4d, 0x61, 0x74, 0x4d, 0x75, 0x6c, 0x00,
  0x9c, 0xfe, 0xff, 0xff, 0x92, 0xff, 0xff, 0xff, 0x04, 0x00, 0x00, 0x00,
  0x04, 0x00, 0x00, 0x00, 0x00, 0x00, 0x00, 0x00, 0x6a, 0xff, 0xff, 0xff,
  0x10, 0x00, 0x00, 0x00, 0x03, 0x00, 0x00, 0x00, 0x10, 0x00, 0x00, 0x00,
  0x48, 0x00, 0x00, 0x00, 0x01, 0x00, 0x00, 0x00, 0x01, 0x00, 0x00, 0x00,
  0x32, 0x00, 0x00, 0x00, 0x73, 0x65, 0x71, 0x75, 0x65, 0x6e, 0x74, 0x69,
  0x61, 0x6c, 0x2f, 0x64, 0x65, 0x6e, 0x73, 0x65, 0x5f, 0x32, 0x2f, 0x42,
  0x69, 0x61, 0x73, 0x41, 0x64, 0x64, 0x2f, 0x52, 0x65, 0x61, 0x64, 0x56,
  0x61, 0x72, 0x69, 0x61, 0x62, 0x6c, 0x65, 0x4f, 0x70, 0x2f, 0x72, 0x65,
  0x73, 0x6f, 0x75, 0x72, 0x63, 0x65, 0x00, 0x00, 0x04, 0x00, 0x06, 0x00,
  0x04, 0x00, 0x00, 0x00, 0x00, 0x00, 0x06, 0x00, 0x08, 0x00, 0x04, 0x00,
  0x06, 0x00, 0x00, 0x00, 0x04, 0x00, 0x00, 0x00, 0x24, 0x00, 0x00, 0x00,
  0x00, 0x00, 0x00, 0x00, 0x00, 0x00, 0x00, 0x00, 0x00, 0x00, 0x00, 0x00,
  0x00, 0x00, 0x00, 0x00, 0x00, 0x00, 0x00, 0x00, 0x00, 0x00, 0x00, 0x00,
  0x00, 0x00, 0x00, 0x00, 0x00, 0x00, 0x00, 0x00, 0x00, 0x00, 0x00, 0x00,
  0x00, 0x00, 0x0e, 0x00, 0x14, 0x00, 0x04, 0x00, 0x00, 0x00, 0x08, 0x00,
  0x0c, 0x00, 0x10, 0x00, 0x0e, 0x00, 0x00, 0x00, 0x10, 0x00, 0x00, 0x00,
  0x02, 0x00, 0x00, 0x00, 0x10, 0x00, 0x00, 0x00, 0x44, 0x00, 0x00, 0x00,
  0x01, 0x00, 0x00, 0x00, 0x09, 0x00, 0x00, 0x00, 0x32, 0x00, 0x00, 0x00,
  0x73, 0x65, 0x71, 0x75, 0x65, 0x6e, 0x74, 0x69, 0x61, 0x6c, 0x2f, 0x64,
  0x65, 0x6e, 0x73, 0x65, 0x5f, 0x31, 0x2f, 0x42, 0x69, 0x61, 0x73, 0x41,
  0x64, 0x64, 0x2f, 0x52, 0x65, 0x61, 0x64, 0x56, 0x61, 0x72, 0x69, 0x61,
  0x62, 0x6c, 0x65, 0x4f, 0x70, 0x2f, 0x72, 0x65, 0x73, 0x6f, 0x75, 0x72,
  0x63, 0x65, 0x00, 0x00, 0xa8, 0xff, 0xff, 0xff, 0x14, 0x00, 0x18, 0x00,
  0x04, 0x00, 0x00, 0x00, 0x08, 0x00, 0x0c, 0x00, 0x10, 0x00, 0x00, 0x00,
  0x00, 0x00, 0x14, 0x00, 0x14, 0x00, 0x00, 0x00, 0x14, 0x00, 0x00, 0x00,
  0x01, 0x00, 0x00, 0x00, 0x18, 0x00, 0x00, 0x00, 0x2c, 0x00, 0x00, 0x00,
  0x1c, 0x00, 0x00, 0x00, 0x02, 0x00, 0x00, 0x00, 0x01, 0x00, 0x00, 0x00,
  0x0a, 0x00, 0x00, 0x00, 0x07, 0x00, 0x00, 0x00, 0x69, 0x6e, 0x70, 0x75,
  0x74, 0x5f, 0x31, 0x00, 0x02, 0x00, 0x00, 0x00, 0xff, 0xff, 0xff, 0xff,
  0x0a, 0x00, 0x00, 0x00, 0xfc, 0xff, 0xff, 0xff, 0x04, 0x00, 0x04, 0x00,
  0x04, 0x00, 0x00, 0x00
};
const int g_model_len = 2404;
